#pragma once

// Model data
const unsigned char g_vital_signs_model_quantized_tflite[] = {
  0x1c, 0x00, 0x00, 0x00, 0x54, 0x46, 0x4c, 0x33, 0x14, 0x00, 0x20, 0x00,
  0x1c, 0x00, 0x18, 0x00, 0x14, 0x00, 0x10, 0x00, 0x0c, 0x00, 0x00, 0x00,
  0x08, 0x00, 0x04, 0x00, 0x14, 0x00, 0x00, 0x00, 0x1c, 0x00, 0x00, 0x00,
  0x8c, 0x00, 0x00, 0x00, 0xe4, 0x00, 0x00, 0x00, 0x50, 0x06, 0x00, 0x00,
  0x60, 0x06, 0x00, 0x00, 0xf4, 0x0b, 0x00, 0x00, 0x03, 0x00, 0x00, 0x00,
  0x01, 0x00, 0x00, 0x00, 0x04, 0x00, 0x00, 0x00, 0x62, 0xf9, 0xff, 0xff,
  0x0c, 0x00, 0x00, 0x00, 0x1c, 0x00, 0x00, 0x00, 0x3c, 0x00, 0x00, 0x00,
  0x0f, 0x00, 0x00, 0x00, 0x73, 0x65, 0x72, 0x76, 0x69, 0x6e, 0x67, 0x5f,
  0x64, 0x65, 0x66, 0x61, 0x75, 0x6c, 0x74, 0x00, 0x01, 0x00, 0x00, 0x00,
  0x04, 0x00, 0x00, 0x00, 0x90, 0xff, 0xff, 0xff, 0x0a, 0x00, 0x00, 0x00,
  0x04, 0x00, 0x00, 0x00, 0x08, 0x00, 0x00, 0x00, 0x6f, 0x75, 0x74, 0x70,
  0x75, 0x74, 0x5f, 0x30, 0x00, 0x00, 0x00, 0x00, 0x01, 0x00, 0x00, 0x00,
  0x04, 0x00, 0x00, 0x00, 0x52, 0xfa, 0xff, 0xff, 0x04, 0x00, 0x00, 0x00,
  0x0e, 0x00, 0x00, 0x00, 0x6b, 0x65, 0x72, 0x61, 0x73, 0x5f, 0x74, 0x65,
  0x6e, 0x73, 0x6f, 0x72, 0x5f, 0x34, 0x00, 0x00, 0x02, 0x00, 0x00, 0x00,
  0x34, 0x00, 0x00, 0x00, 0x04, 0x00, 0x00, 0x00, 0xdc, 0xff, 0xff, 0xff,
  0x0d, 0x00, 0x00, 0x00, 0x04, 0x00, 0x00, 0x00, 0x13, 0x00, 0x00, 0x00,
  0x43, 0x4f, 0x4e, 0x56, 0x45, 0x52, 0x53, 0x49, 0x4f, 0x4e, 0x5f, 0x4d,
  0x45, 0x54, 0x41, 0x44, 0x41, 0x54, 0x41, 0x00, 0x08, 0x00, 0x0c, 0x00,
  0x08, 0x00, 0x04, 0x00, 0x08, 0x00, 0x00, 0x00, 0x0c, 0x00, 0x00, 0x00,
  0x04, 0x00, 0x00, 0x00, 0x13, 0x00, 0x00, 0x00, 0x6d, 0x69, 0x6e, 0x5f,
  0x72, 0x75, 0x6e, 0x74, 0x69, 0x6d, 0x65, 0x5f, 0x76, 0x65, 0x72, 0x73,
  0x69, 0x6f, 0x6e, 0x00, 0x0e, 0x00, 0x00, 0x00, 0x68, 0x05, 0x00, 0x00,
  0x60, 0x05, 0x00, 0x00, 0x30, 0x05, 0x00, 0x00, 0x18, 0x03, 0x00, 0x00,
  0x04, 0x03, 0x00, 0x00, 0xd4, 0x02, 0x00, 0x00, 0x84, 0x02, 0x00, 0x00,
  0xb4, 0x00, 0x00, 0x00, 0xac, 0x00, 0x00, 0x00, 0xa4, 0x00, 0x00, 0x00,
  0x9c, 0x00, 0x00, 0x00, 0x94, 0x00, 0x00, 0x00, 0x74, 0x00, 0x00, 0x00,
  0x04, 0x00, 0x00, 0x00, 0x06, 0xfb, 0xff, 0xff, 0x04, 0x00, 0x00, 0x00,
  0x60, 0x00, 0x00, 0x00, 0x0c, 0x00, 0x00, 0x00, 0x08, 0x00, 0x0e, 0x00,
  0x08, 0x00, 0x04, 0x00, 0x08, 0x00, 0x00, 0x00, 0x10, 0x00, 0x00, 0x00,
  0x28, 0x00, 0x00, 0x00, 0x00, 0x00, 0x06, 0x00, 0x08, 0x00, 0x04, 0x00,
  0x06, 0x00, 0x00, 0x00, 0x04, 0x00, 0x00, 0x00, 0x01, 0x00, 0x00, 0x00,
  0xea, 0x03, 0x00, 0x00, 0x0c, 0x00, 0x18, 0x00, 0x14, 0x00, 0x10, 0x00,
  0x0c, 0x00, 0x04, 0x00, 0x0c, 0x00, 0x00, 0x00, 0x14, 0xa7, 0x19, 0x14,
  0x89, 0x5c, 0x17, 0x21, 0x02, 0x00, 0x00, 0x00, 0x02, 0x00, 0x00, 0x00,
  0x04, 0x00, 0x00, 0x00, 0x06, 0x00, 0x00, 0x00, 0x32, 0x2e, 0x31, 0x39,
  0x2e, 0x30, 0x00, 0x00, 0x72, 0xfb, 0xff, 0xff, 0x04, 0x00, 0x00, 0x00,
  0x10, 0x00, 0x00, 0x00, 0x31, 0x2e, 0x31, 0x34, 0x2e, 0x30, 0x00, 0x00,
  0x00, 0x00, 0x00, 0x00, 0x00, 0x00, 0x00, 0x00, 0xe4, 0xf5, 0xff, 0xff,
  0xe8, 0xf5, 0xff, 0xff, 0xec, 0xf5, 0xff, 0xff, 0xf0, 0xf5, 0xff, 0xff,
  0x9e, 0xfb, 0xff, 0xff, 0x04, 0x00, 0x00, 0x00, 0xc0, 0x01, 0x00, 0x00,
  0x9d, 0x56, 0x06, 0x3f, 0x62, 0x6d, 0x70, 0xbc, 0xdd, 0x04, 0x8f, 0x3c,
  0x40, 0xf7, 0x00, 0x3d, 0xe9, 0xdf, 0xa6, 0xbe, 0x3b, 0xc2, 0x8d, 0x3e,
  0x10, 0x2c, 0x22, 0xbd, 0x97, 0x2d, 0x08, 0xbc, 0x3f, 0x58, 0x8e, 0xbd,
  0x69, 0x02, 0xc6, 0x3c, 0x4a, 0x34, 0x88, 0x3d, 0xc9, 0xe6, 0x56, 0x3d,
  0xc4, 0x2d, 0xb2, 0xbc, 0x10, 0x8f, 0x47, 0xbf, 0xda, 0xaf, 0xe8, 0x3e,
  0x15, 0xa5, 0x42, 0xbd, 0x31, 0xe7, 0x30, 0xbc, 0x6c, 0x3a, 0x04, 0xbe,
  0x27, 0xe3, 0x7e, 0xbe, 0xd1, 0x54, 0xe1, 0x3e, 0xad, 0x0f, 0x15, 0x3d,
  0x0b, 0x77, 0x09, 0x3f, 0xe5, 0xee, 0x0d, 0xbd, 0x92, 0xf9, 0xe1, 0x3b,
  0xe7, 0x00, 0x2f, 0x3b, 0xfe, 0xe0, 0xbb, 0x3f, 0xa5, 0xba, 0x89, 0xbf,
  0x78, 0x21, 0x8b, 0x3e, 0x10, 0x4a, 0xb5, 0x3c, 0x80, 0x5a, 0x98, 0xbc,
  0x08, 0xf7, 0xff, 0x3c, 0xe7, 0x9d, 0xef, 0x3c, 0x19, 0x6d, 0x88, 0xbc,
  0xf0, 0xbd, 0x81, 0x3f, 0x65, 0x39, 0x16, 0xbd, 0xd7, 0x6f, 0x90, 0x3f,
  0x8f, 0xf0, 0x0f, 0xbd, 0x86, 0x8d, 0xc1, 0x3c, 0xc7, 0xfb, 0x46, 0x3c,
  0x96, 0xfd, 0xb8, 0xbf, 0x44, 0xfb, 0xba, 0x3f, 0x2f, 0x27, 0x1c, 0x3e,
  0x79, 0x1a, 0x2b, 0x3d, 0xbf, 0x77, 0xea, 0xbe, 0xfb, 0xf3, 0xa3, 0x3d,
  0x56, 0x87, 0x5c, 0xbe, 0xbf, 0xb7, 0x60, 0xbe, 0x3b, 0xe2, 0xf5, 0x3c,
  0xcf, 0x91, 0x07, 0xbf, 0xa4, 0x22, 0x25, 0xbf, 0x0a, 0x84, 0xc0, 0xbc,
  0x2a, 0x04, 0x4e, 0xbc, 0xdc, 0x03, 0x09, 0xbc, 0x71, 0xdd, 0xc2, 0xbf,
  0xac, 0x41, 0x81, 0x3f, 0xa2, 0xaa, 0x3b, 0x3d, 0x06, 0xef, 0xd4, 0x3f,
  0xe4, 0xa9, 0xaa, 0x37, 0x0f, 0x9b, 0x09, 0xbb, 0x67, 0x44, 0xa1, 0x3b,
  0xbd, 0xdd, 0x07, 0x3b, 0x0a, 0x71, 0x29, 0x3c, 0xaf, 0xea, 0xd6, 0xbc,
  0x7b, 0xf5, 0xb2, 0x3e, 0xe7, 0x6d, 0x21, 0xbd, 0xce, 0x91, 0x44, 0xbd,
  0x98, 0x0a, 0xa5, 0xbb, 0xa6, 0xd0, 0x8e, 0xbe, 0xde, 0xe5, 0xb6, 0x3e,
  0xfa, 0x13, 0xd7, 0x3c, 0xcc, 0x09, 0x0f, 0x3d, 0x76, 0x4d, 0xaf, 0xbb,
  0x5b, 0xff, 0x9e, 0x3c, 0x41, 0x09, 0xe9, 0x39, 0x0d, 0x41, 0x02, 0x3c,
  0xa6, 0x23, 0x9f, 0xbc, 0xa2, 0x42, 0x0b, 0xbf, 0x34, 0x33, 0x57, 0x3f,
  0x24, 0xb6, 0x82, 0x3b, 0x73, 0x2b, 0xfd, 0xbc, 0xb8, 0x2e, 0x93, 0x39,
  0x07, 0xac, 0xc7, 0x3f, 0x5a, 0xd7, 0x8e, 0xbf, 0x99, 0xbf, 0x1d, 0x3d,
  0x1b, 0xe5, 0x8c, 0x3f, 0x5c, 0x9d, 0xcd, 0x3c, 0xa4, 0xb3, 0xcb, 0xbc,
  0xca, 0xf3, 0xc4, 0xbc, 0x76, 0xef, 0xb6, 0xbf, 0x23, 0x4d, 0xa8, 0x3f,
  0x30, 0x32, 0xc4, 0x3c, 0xb1, 0x16, 0x1e, 0x3c, 0x1a, 0x54, 0xf8, 0xbb,
  0x0b, 0xa6, 0x01, 0xbc, 0x9e, 0xee, 0x7b, 0xbc, 0x52, 0x61, 0x80, 0x3d,
  0x6e, 0xee, 0x8c, 0x3f, 0xde, 0x4e, 0x44, 0xbc, 0xdc, 0xfb, 0xf7, 0x3e,
  0x65, 0xd2, 0xe1, 0xbb, 0xa7, 0x93, 0x40, 0xbd, 0x19, 0x3f, 0x2e, 0x3d,
  0xa1, 0xc1, 0xea, 0xbd, 0x51, 0xa3, 0xcd, 0x3e, 0xe8, 0x75, 0x82, 0x3e,
  0x59, 0x6e, 0x0e, 0x3f, 0xdd, 0x2e, 0x34, 0x3d, 0xb7, 0xc8, 0xca, 0x3c,
  0xc5, 0xed, 0x45, 0x3d, 0xd9, 0x98, 0x34, 0xbe, 0x0f, 0x61, 0x14, 0x3f,
  0x46, 0x4b, 0x26, 0x3e, 0x6a, 0xfd, 0xff, 0xff, 0x04, 0x00, 0x00, 0x00,
  0x40, 0x00, 0x00, 0x00, 0x5e, 0xe6, 0xa8, 0x3f, 0x17, 0xfb, 0xbe, 0xbe,
  0x81, 0x34, 0xc6, 0x3f, 0x0b, 0x7a, 0x1c, 0x3f, 0xd7, 0x69, 0x0e, 0xbf,
  0x7b, 0xbe, 0x8f, 0x3e, 0xa2, 0x49, 0x0e, 0xbf, 0xe6, 0xbe, 0xa4, 0xbf,
  0x1a, 0x77, 0xc1, 0xbf, 0x1e, 0x5d, 0x80, 0x3f, 0x49, 0x59, 0xd8, 0xbd,
  0x69, 0xcb, 0x5e, 0x3f, 0x51, 0x08, 0xb9, 0x3e, 0x4a, 0x1d, 0x53, 0x3f,
  0x40, 0x95, 0xb1, 0x3f, 0xa3, 0xb9, 0xdb, 0x3f, 0xb6, 0xfd, 0xff, 0xff,
  0x04, 0x00, 0x00, 0x00, 0x20, 0x00, 0x00, 0x00, 0x6c, 0x57, 0xa5, 0x3f,
  0x88, 0x37, 0x15, 0xbe, 0x3f, 0x39, 0x8e, 0x3f, 0x5e, 0x5c, 0xe7, 0xbe,
  0x05, 0x94, 0x98, 0x3f, 0x49, 0x71, 0x84, 0x3b, 0xa7, 0xa1, 0x9d, 0x3f,
  0xb2, 0x0e, 0xe9, 0x3e, 0xe2, 0xfd, 0xff, 0xff, 0x04, 0x00, 0x00, 0x00,
  0x04, 0x00, 0x00, 0x00, 0x7d, 0x13, 0xba, 0xbe, 0xf2, 0xfd, 0xff, 0xff,
  0x04, 0x00, 0x00, 0x00, 0x00, 0x02, 0x00, 0x00, 0x81, 0x1c, 0x34, 0x3f,
  0x11, 0x4c, 0x2a, 0x3d, 0xd7, 0x46, 0x4c, 0x3f, 0x33, 0x77, 0x60, 0xbf,
  0xb9, 0x96, 0x1b, 0xbf, 0xbc, 0x93, 0xba, 0xbf, 0x2b, 0x34, 0xc8, 0x3e,
  0x2e, 0x61, 0xe7, 0xbf, 0xf3, 0xa4, 0x0c, 0xc1, 0xe0, 0x27, 0x01, 0x3c,
  0x52, 0xf0, 0x35, 0x3e, 0xcd, 0x4f, 0x81, 0xbf, 0x37, 0x12, 0x79, 0xbf,
  0x64, 0xda, 0xf4, 0x3e, 0x89, 0x04, 0x60, 0x3f, 0x98, 0xa8, 0x3c, 0x3f,
  0x22, 0xc5, 0x00, 0xbf, 0xe0, 0x49, 0xa8, 0x3e, 0x16, 0x6a, 0xe5, 0xbe,
  0x4c, 0x4f, 0xc8, 0x3d, 0xd1, 0x51, 0xfb, 0xbe, 0xd1, 0x93, 0x74, 0xbe,
  0x27, 0xac, 0xa4, 0x3e, 0x21, 0x29, 0xac, 0x3d, 0x1d, 0xe3, 0xc9, 0xbe,
  0x82, 0x74, 0x70, 0xbe, 0x0b, 0xfc, 0x9e, 0xbe, 0xa6, 0xe2, 0x8a, 0xbe,
  0xb7, 0x2c, 0x9a, 0xbe, 0x36, 0x6c, 0xce, 0xbe, 0x7a, 0xb6, 0xcd, 0x3d,
  0x34, 0x83, 0xc6, 0xbe, 0x52, 0x97, 0xa8, 0x3e, 0x9a, 0x29, 0x1c, 0xbd,
  0x94, 0x7b, 0x09, 0x3f, 0xb1, 0xcc, 0xf5, 0xbe, 0x7e, 0x79, 0x86, 0xbe,
  0x1b, 0x8d, 0x38, 0xbf, 0xd8, 0xd3, 0x73, 0xbe, 0x03, 0x76, 0xd5, 0xbf,
  0xf7, 0x1b, 0x0f, 0xc1, 0x79, 0x06, 0xeb, 0x3e, 0x4d, 0xed, 0xa5, 0x3d,
  0xfc, 0x4b, 0x73, 0xbf, 0x43, 0x14, 0x61, 0xbf, 0x98, 0xfb, 0xcb, 0x3d,
  0xea, 0x59, 0xd0, 0x3e, 0x65, 0x47, 0x14, 0x3f, 0x92, 0x89, 0xc0, 0x3c,
  0xc3, 0xb7, 0x16, 0x3e, 0x6f, 0x0f, 0x7f, 0x3e, 0x9a, 0x77, 0xc6, 0x3f,
  0x96, 0x31, 0x5d, 0x3e, 0x8b, 0x04, 0xdc, 0x3f, 0x36, 0x3c, 0x0d, 0xbc,
  0x36, 0xa2, 0xf5, 0x3f, 0x21, 0xc1, 0x0a, 0x41, 0x5f, 0x07, 0x5f, 0x3e,
  0xae, 0x08, 0xc4, 0x3e, 0xde, 0x3d, 0x01, 0x40, 0xf4, 0xf7, 0xcd, 0x3f,
  0x96, 0xb4, 0x1e, 0xbe, 0xb2, 0xc1, 0x98, 0x3d, 0xd3, 0x33, 0x95, 0xbd,
  0x13, 0x21, 0xf9, 0x3e, 0x4c, 0xda, 0x18, 0x3e, 0x18, 0xd2, 0x79, 0x3f,
  0x2a, 0x0d, 0x1a, 0xbf, 0x7b, 0x56, 0x09, 0xbf, 0xc3, 0x2b, 0xa5, 0xbf,
  0xf2, 0x38, 0x41, 0xbd, 0x7f, 0x6f, 0x0a, 0xc0, 0x79, 0x34, 0x13, 0xc1,
  0xc0, 0xa9, 0x4e, 0x3e, 0xf2, 0x7c, 0x6a, 0x3d, 0xec, 0x8c, 0x9b, 0xbf,
  0x75, 0x9a, 0x83, 0xbf, 0x75, 0xc2, 0xcf, 0x3e, 0xd1, 0x5d, 0xd0, 0x3e,
  0x0b, 0xe8, 0x63, 0x3f, 0xf5, 0xc0, 0xcf, 0xbe, 0x5b, 0x8f, 0x67, 0x3c,
  0xdf, 0x23, 0x47, 0xbd, 0x2a, 0xe3, 0xbb, 0xbe, 0x3e, 0x58, 0x8b, 0x3e,
  0x2a, 0xf9, 0x1e, 0xbe, 0x01, 0xc7, 0x00, 0xbf, 0xe4, 0x65, 0xc9, 0xbe,
  0x78, 0x5a, 0x02, 0xbf, 0x54, 0x2f, 0xf4, 0xbe, 0xd5, 0x44, 0x83, 0xbe,
  0x48, 0x5a, 0x8f, 0x3e, 0xa9, 0x24, 0x55, 0xbe, 0x33, 0xbf, 0xb8, 0xbd,
  0x48, 0x41, 0xe1, 0xbd, 0x79, 0xad, 0x1f, 0xbe, 0xfb, 0x41, 0x03, 0x3f,
  0x88, 0xec, 0xd7, 0x3d, 0xda, 0x8a, 0x48, 0x3f, 0x8e, 0x80, 0x51, 0xbf,
  0xc1, 0xf6, 0xae, 0xbc, 0xb2, 0x49, 0x2e, 0xbf, 0xe2, 0x90, 0x0a, 0x3e,
  0x26, 0xd2, 0xde, 0xbf, 0x6c, 0xc2, 0x13, 0xc1, 0x9f, 0x4e, 0xb0, 0x3a,
  0xd3, 0x4e, 0xac, 0xbd, 0x3f, 0x5c, 0x6b, 0xbf, 0x4f, 0x03, 0xb3, 0xbf,
  0xa5, 0xa4, 0x15, 0xbd, 0xae, 0x59, 0x32, 0x3f, 0xf8, 0x6e, 0x82, 0x3f,
  0x84, 0x03, 0x6d, 0x3f, 0xa0, 0x06, 0xb3, 0xbe, 0x5b, 0xf4, 0x5f, 0x3e,
  0x67, 0x0e, 0x05, 0xbe, 0xcd, 0x4d, 0xb8, 0xbe, 0x49, 0x51, 0xca, 0xbf,
  0x17, 0xd3, 0x0c, 0xbe, 0x4a, 0xf2, 0x85, 0xbf, 0x33, 0xdd, 0xb8, 0xc0,
  0x44, 0xe4, 0x6c, 0x3e, 0x0e, 0x2c, 0x28, 0xbe, 0x32, 0x58, 0x0c, 0xbf,
  0x72, 0x2d, 0x6e, 0xbf, 0xb4, 0x0f, 0xb4, 0x3e, 0xe2, 0x61, 0xa2, 0x3c,
  0x92, 0x07, 0x51, 0x3f, 0x00, 0x00, 0x06, 0x00, 0x08, 0x00, 0x04, 0x00,
  0x06, 0x00, 0x00, 0x00, 0x04, 0x00, 0x00, 0x00, 0x20, 0x00, 0x00, 0x00,
  0x49, 0xd9, 0x9c, 0xc0, 0xc7, 0xb0, 0xdb, 0xbd, 0x67, 0x13, 0x86, 0xc0,
  0xad, 0xb7, 0xd7, 0x3f, 0xa4, 0x8d, 0xb2, 0xc0, 0xe4, 0x85, 0xd3, 0xbe,
  0x08, 0xa1, 0x90, 0xc0, 0x11, 0xa7, 0x3a, 0xc0, 0x88, 0xfa, 0xff, 0xff,
  0x8c, 0xfa, 0xff, 0xff, 0x0f, 0x00, 0x00, 0x00, 0x4d, 0x4c, 0x49, 0x52,
  0x20, 0x43, 0x6f, 0x6e, 0x76, 0x65, 0x72, 0x74, 0x65, 0x64, 0x2e, 0x00,
  0x01, 0x00, 0x00, 0x00, 0x14, 0x00, 0x00, 0x00, 0x00, 0x00, 0x0e, 0x00,
  0x18, 0x00, 0x14, 0x00, 0x10, 0x00, 0x0c, 0x00, 0x08, 0x00, 0x04, 0x00,
  0x0e, 0x00, 0x00, 0x00, 0x14, 0x00, 0x00, 0x00, 0x1c, 0x00, 0x00, 0x00,
  0x08, 0x01, 0x00, 0x00, 0x0c, 0x01, 0x00, 0x00, 0x10, 0x01, 0x00, 0x00,
  0x04, 0x00, 0x00, 0x00, 0x6d, 0x61, 0x69, 0x6e, 0x00, 0x00, 0x00, 0x00,
  0x04, 0x00, 0x00, 0x00, 0xb0, 0x00, 0x00, 0x00, 0x68, 0x00, 0x00, 0x00,
  0x34, 0x00, 0x00, 0x00, 0x10, 0x00, 0x00, 0x00, 0x00, 0x00, 0x0a, 0x00,
  0x10, 0x00, 0x0c, 0x00, 0x08, 0x00, 0x04, 0x00, 0x0a, 0x00, 0x00, 0x00,
  0x0c, 0x00, 0x00, 0x00, 0x10, 0x00, 0x00, 0x00, 0x01, 0x00, 0x00, 0x00,
  0x01, 0x00, 0x00, 0x00, 0x0a, 0x00, 0x00, 0x00, 0x01, 0x00, 0x00, 0x00,
  0x09, 0x00, 0x00, 0x00, 0x9a, 0xff, 0xff, 0xff, 0x10, 0x00, 0x00, 0x00,
  0x00, 0x00, 0x00, 0x08, 0x0c, 0x00, 0x00, 0x00, 0x10, 0x00, 0x00, 0x00,
  0x34, 0xfb, 0xff, 0xff, 0x01, 0x00, 0x00, 0x00, 0x09, 0x00, 0x00, 0x00,
  0x03, 0x00, 0x00, 0x00, 0x08, 0x00, 0x00, 0x00, 0x01, 0x00, 0x00, 0x00,
  0x03, 0x00, 0x00, 0x00, 0xca, 0xff, 0xff, 0xff, 0x10, 0x00, 0x00, 0x00,
  0x00, 0x00, 0x00, 0x08, 0x10, 0x00, 0x00, 0x00, 0x14, 0x00, 0x00, 0x00,
  0xba, 0xff, 0xff, 0xff, 0x00, 0x00, 0x00, 0x01, 0x01, 0x00, 0x00, 0x00,
  0x08, 0x00, 0x00, 0x00, 0x03, 0x00, 0x00, 0x00, 0x07, 0x00, 0x00, 0x00,
  0x02, 0x00, 0x00, 0x00, 0x04, 0x00, 0x00, 0x00, 0x00, 0x00, 0x0e, 0x00,
  0x16, 0x00, 0x00, 0x00, 0x10, 0x00, 0x0c, 0x00, 0x0b, 0x00, 0x04, 0x00,
  0x0e, 0x00, 0x00, 0x00, 0x18, 0x00, 0x00, 0x00, 0x00, 0x00, 0x00, 0x08,
  0x18, 0x00, 0x00, 0x00, 0x1c, 0x00, 0x00, 0x00, 0x00, 0x00, 0x06, 0x00,
  0x08, 0x00, 0x07, 0x00, 0x06, 0x00, 0x00, 0x00, 0x00, 0x00, 0x00, 0x01,
  0x01, 0x00, 0x00, 0x00, 0x07, 0x00, 0x00, 0x00, 0x03, 0x00, 0x00, 0x00,
  0x00, 0x00, 0x00, 0x00, 0x06, 0x00, 0x00, 0x00, 0x05, 0x00, 0x00, 0x00,
  0x01, 0x00, 0x00, 0x00, 0x0a, 0x00, 0x00, 0x00, 0x01, 0x00, 0x00, 0x00,
  0x00, 0x00, 0x00, 0x00, 0x0b, 0x00, 0x00, 0x00, 0xf4, 0x03, 0x00, 0x00,
  0x9c, 0x03, 0x00, 0x00, 0x44, 0x03, 0x00, 0x00, 0x08, 0x03, 0x00, 0x00,
  0xcc, 0x02, 0x00, 0x00, 0x70, 0x02, 0x00, 0x00, 0x20, 0x02, 0x00, 0x00,
  0x80, 0x01, 0x00, 0x00, 0xe0, 0x00, 0x00, 0x00, 0x60, 0x00, 0x00, 0x00,
  0x04, 0x00, 0x00, 0x00, 0x4e, 0xfc, 0xff, 0xff, 0x00, 0x00, 0x00, 0x01,
  0x14, 0x00, 0x00, 0x00, 0x1c, 0x00, 0x00, 0x00, 0x1c, 0x00, 0x00, 0x00,
  0x0b, 0x00, 0x00, 0x00, 0x34, 0x00, 0x00, 0x00, 0x02, 0x00, 0x00, 0x00,
  0xff, 0xff, 0xff, 0xff, 0x01, 0x00, 0x00, 0x00, 0x38, 0xfc, 0xff, 0xff,
  0x1b, 0x00, 0x00, 0x00, 0x53, 0x74, 0x61, 0x74, 0x65, 0x66, 0x75, 0x6c,
  0x50, 0x61, 0x72, 0x74, 0x69, 0x74, 0x69, 0x6f, 0x6e, 0x65, 0x64, 0x43,
  0x61, 0x6c, 0x6c, 0x5f, 0x31, 0x3a, 0x30, 0x00, 0x02, 0x00, 0x00, 0x00,
  0x01, 0x00, 0x00, 0x00, 0x01, 0x00, 0x00, 0x00, 0xa6, 0xfc, 0xff, 0xff,
  0x00, 0x00, 0x00, 0x01, 0x14, 0x00, 0x00, 0x00, 0x1c, 0x00, 0x00, 0x00,
  0x1c, 0x00, 0x00, 0x00, 0x0a, 0x00, 0x00, 0x00, 0x58, 0x00, 0x00, 0x00,
  0x02, 0x00, 0x00, 0x00, 0xff, 0xff, 0xff, 0xff, 0x01, 0x00, 0x00, 0x00,
  0x90, 0xfc, 0xff, 0xff, 0x3c, 0x00, 0x00, 0x00, 0x73, 0x65, 0x71, 0x75,
  0x65, 0x6e, 0x74, 0x69, 0x61, 0x6c, 0x5f, 0x31, 0x5f, 0x31, 0x2f, 0x64,
  0x65, 0x6e, 0x73, 0x65, 0x5f, 0x35, 0x5f, 0x31, 0x2f, 0x4d, 0x61, 0x74,
  0x4d, 0x75, 0x6c, 0x3b, 0x73, 0x65, 0x71, 0x75, 0x65, 0x6e, 0x74, 0x69,
  0x61, 0x6c, 0x5f, 0x31, 0x5f, 0x31, 0x2f, 0x64, 0x65, 0x6e, 0x73, 0x65,
  0x5f, 0x35, 0x5f, 0x31, 0x2f, 0x41, 0x64, 0x64, 0x00, 0x00, 0x00, 0x00,
  0x02, 0x00, 0x00, 0x00, 0x01, 0x00, 0x00, 0x00, 0x01, 0x00, 0x00, 0x00,
  0x22, 0xfd, 0xff, 0xff, 0x00, 0x00, 0x00, 0x01, 0x14, 0x00, 0x00, 0x00,
  0x1c, 0x00, 0x00, 0x00, 0x1c, 0x00, 0x00, 0x00, 0x09, 0x00, 0x00, 0x00,
  0x78, 0x00, 0x00, 0x00, 0x02, 0x00, 0x00, 0x00, 0xff, 0xff, 0xff, 0xff,
  0x08, 0x00, 0x00, 0x00, 0x0c, 0xfd, 0xff, 0xff, 0x5e, 0x00, 0x00, 0x00,
  0x73, 0x65, 0x71, 0x75, 0x65, 0x6e, 0x74, 0x69, 0x61, 0x6c, 0x5f, 0x31,
  0x5f, 0x31, 0x2f, 0x64, 0x65, 0x6e, 0x73, 0x65, 0x5f, 0x34, 0x5f, 0x31,
  0x2f, 0x4d, 0x61, 0x74, 0x4d, 0x75, 0x6c, 0x3b, 0x73, 0x65, 0x71, 0x75,
  0x65, 0x6e, 0x74, 0x69, 0x61, 0x6c, 0x5f, 0x31, 0x5f, 0x31, 0x2f, 0x64,
  0x65, 0x6e, 0x73, 0x65, 0x5f, 0x34, 0x5f, 0x31, 0x2f, 0x52, 0x65, 0x6c,
  0x75, 0x3b, 0x73, 0x65, 0x71, 0x75, 0x65, 0x6e, 0x74, 0x69, 0x61, 0x6c,
  0x5f, 0x31, 0x5f, 0x31, 0x2f, 0x64, 0x65, 0x6e, 0x73, 0x65, 0x5f, 0x34,
  0x5f, 0x31, 0x2f, 0x42, 0x69, 0x61, 0x73, 0x41, 0x64, 0x64, 0x00, 0x00,
  0x02, 0x00, 0x00, 0x00, 0x01, 0x00, 0x00, 0x00, 0x08, 0x00, 0x00, 0x00,
  0xbe, 0xfd, 0xff, 0xff, 0x00, 0x00, 0x00, 0x01, 0x14, 0x00, 0x00, 0x00,
  0x1c, 0x00, 0x00, 0x00, 0x1c, 0x00, 0x00, 0x00, 0x08, 0x00, 0x00, 0x00,
  0x78, 0x00, 0x00, 0x00, 0x02, 0x00, 0x00, 0x00, 0xff, 0xff, 0xff, 0xff,
  0x10, 0x00, 0x00, 0x00, 0xa8, 0xfd, 0xff, 0xff, 0x5e, 0x00, 0x00, 0x00,
  0x73, 0x65, 0x71, 0x75, 0x65, 0x6e, 0x74, 0x69, 0x61, 0x6c, 0x5f, 0x31,
  0x5f, 0x31, 0x2f, 0x64, 0x65, 0x6e, 0x73, 0x65, 0x5f, 0x33, 0x5f, 0x31,
  0x2f, 0x4d, 0x61, 0x74, 0x4d, 0x75, 0x6c, 0x3b, 0x73, 0x65, 0x71, 0x75,
  0x65, 0x6e, 0x74, 0x69, 0x61, 0x6c, 0x5f, 0x31, 0x5f, 0x31, 0x2f, 0x64,
  0x65, 0x6e, 0x73, 0x65, 0x5f, 0x33, 0x5f, 0x31, 0x2f, 0x52, 0x65, 0x6c,
  0x75, 0x3b, 0x73, 0x65, 0x71, 0x75, 0x65, 0x6e, 0x74, 0x69, 0x61, 0x6c,
  0x5f, 0x31, 0x5f, 0x31, 0x2f, 0x64, 0x65, 0x6e, 0x73, 0x65, 0x5f, 0x33,
  0x5f, 0x31, 0x2f, 0x42, 0x69, 0x61, 0x73, 0x41, 0x64, 0x64, 0x00, 0x00,
  0x02, 0x00, 0x00, 0x00, 0x01, 0x00, 0x00, 0x00, 0x10, 0x00, 0x00, 0x00,
  0xae, 0xfe, 0xff, 0xff, 0x00, 0x00, 0x00, 0x01, 0x10, 0x00, 0x00, 0x00,
  0x10, 0x00, 0x00, 0x00, 0x07, 0x00, 0x00, 0x00, 0x2c, 0x00, 0x00, 0x00,
  0x34, 0xfe, 0xff, 0xff, 0x1f, 0x00, 0x00, 0x00, 0x73, 0x65, 0x71, 0x75,
  0x65, 0x6e, 0x74, 0x69, 0x61, 0x6c, 0x5f, 0x31, 0x5f, 0x31, 0x2f, 0x64,
  0x65, 0x6e, 0x73, 0x65, 0x5f, 0x33, 0x5f, 0x31, 0x2f, 0x4d, 0x61, 0x74,
  0x4d, 0x75, 0x6c, 0x00, 0x02, 0x00, 0x00, 0x00, 0x10, 0x00, 0x00, 0x00,
  0x07, 0x00, 0x00, 0x00, 0xfa, 0xfe, 0xff, 0xff, 0x00, 0x00, 0x00, 0x01,
  0x10, 0x00, 0x00, 0x00, 0x10, 0x00, 0x00, 0x00, 0x06, 0x00, 0x00, 0x00,
  0x3c, 0x00, 0x00, 0x00, 0x80, 0xfe, 0xff, 0xff, 0x2f, 0x00, 0x00, 0x00,
  0x73, 0x65, 0x71, 0x75, 0x65, 0x6e, 0x74, 0x69, 0x61, 0x6c, 0x5f, 0x31,
  0x5f, 0x31, 0x2f, 0x64, 0x65, 0x6e, 0x73, 0x65, 0x5f, 0x33, 0x5f, 0x31,
  0x2f, 0x42, 0x69, 0x61, 0x73, 0x41, 0x64, 0x64, 0x2f, 0x52, 0x65, 0x61,
  0x64, 0x56, 0x61, 0x72, 0x69, 0x61, 0x62, 0x6c, 0x65, 0x4f, 0x70, 0x00,
  0x01, 0x00, 0x00, 0x00, 0x10, 0x00, 0x00, 0x00, 0x52, 0xff, 0xff, 0xff,
  0x00, 0x00, 0x00, 0x01, 0x10, 0x00, 0x00, 0x00, 0x10, 0x00, 0x00, 0x00,
  0x05, 0x00, 0x00, 0x00, 0x1c, 0x00, 0x00, 0x00, 0xd8, 0xfe, 0xff, 0xff,
  0x0f, 0x00, 0x00, 0x00, 0x61, 0x72, 0x69, 0x74, 0x68, 0x2e, 0x63, 0x6f,
  0x6e, 0x73, 0x74, 0x61, 0x6e, 0x74, 0x33, 0x00, 0x01, 0x00, 0x00, 0x00,
  0x08, 0x00, 0x00, 0x00, 0x8a, 0xff, 0xff, 0xff, 0x00, 0x00, 0x00, 0x01,
  0x10, 0x00, 0x00, 0x00, 0x10, 0x00, 0x00, 0x00, 0x04, 0x00, 0x00, 0x00,
  0x1c, 0x00, 0x00, 0x00, 0x10, 0xff, 0xff, 0xff, 0x0f, 0x00, 0x00, 0x00,
  0x61, 0x72, 0x69, 0x74, 0x68, 0x2e, 0x63, 0x6f, 0x6e, 0x73, 0x74, 0x61,
  0x6e, 0x74, 0x32, 0x00, 0x01, 0x00, 0x00, 0x00, 0x01, 0x00, 0x00, 0x00,
  0xc2, 0xff, 0xff, 0xff, 0x00, 0x00, 0x00, 0x01, 0x10, 0x00, 0x00, 0x00,
  0x10, 0x00, 0x00, 0x00, 0x03, 0x00, 0x00, 0x00, 0x1c, 0x00, 0x00, 0x00,
  0x48, 0xff, 0xff, 0xff, 0x0f, 0x00, 0x00, 0x00, 0x61, 0x72, 0x69, 0x74,
  0x68, 0x2e, 0x63, 0x6f, 0x6e, 0x73, 0x74, 0x61, 0x6e, 0x74, 0x31, 0x00,
  0x02, 0x00, 0x00, 0x00, 0x08, 0x00, 0x00, 0x00, 0x10, 0x00, 0x00, 0x00,
  0x00, 0x00, 0x16, 0x00, 0x18, 0x00, 0x14, 0x00, 0x00, 0x00, 0x10, 0x00,
  0x0c, 0x00, 0x08, 0x00, 0x00, 0x00, 0x00, 0x00, 0x00, 0x00, 0x07, 0x00,
  0x16, 0x00, 0x00, 0x00, 0x00, 0x00, 0x00, 0x01, 0x10, 0x00, 0x00, 0x00,
  0x10, 0x00, 0x00, 0x00, 0x02, 0x00, 0x00, 0x00, 0x1c, 0x00, 0x00, 0x00,
  0x9c, 0xff, 0xff, 0xff, 0x0e, 0x00, 0x00, 0x00, 0x61, 0x72, 0x69, 0x74,
  0x68, 0x2e, 0x63, 0x6f, 0x6e, 0x73, 0x74, 0x61, 0x6e, 0x74, 0x00, 0x00,
  0x02, 0x00, 0x00, 0x00, 0x01, 0x00, 0x00, 0x00, 0x08, 0x00, 0x00, 0x00,
  0x00, 0x00, 0x16, 0x00, 0x1c, 0x00, 0x18, 0x00, 0x00, 0x00, 0x14, 0x00,
  0x10, 0x00, 0x0c, 0x00, 0x00, 0x00, 0x00, 0x00, 0x08, 0x00, 0x07, 0x00,
  0x16, 0x00, 0x00, 0x00, 0x00, 0x00, 0x00, 0x01, 0x14, 0x00, 0x00, 0x00,
  0x20, 0x00, 0x00, 0x00, 0x20, 0x00, 0x00, 0x00, 0x01, 0x00, 0x00, 0x00,
  0x40, 0x00, 0x00, 0x00, 0x02, 0x00, 0x00, 0x00, 0xff, 0xff, 0xff, 0xff,
  0x07, 0x00, 0x00, 0x00, 0x04, 0x00, 0x04, 0x00, 0x04, 0x00, 0x00, 0x00,
  0x20, 0x00, 0x00, 0x00, 0x73, 0x65, 0x72, 0x76, 0x69, 0x6e, 0x67, 0x5f,
  0x64, 0x65, 0x66, 0x61, 0x75, 0x6c, 0x74, 0x5f, 0x6b, 0x65, 0x72, 0x61,
  0x73, 0x5f, 0x74, 0x65, 0x6e, 0x73, 0x6f, 0x72, 0x5f, 0x34, 0x3a, 0x30,
  0x00, 0x00, 0x00, 0x00, 0x02, 0x00, 0x00, 0x00, 0x01, 0x00, 0x00, 0x00,
  0x6e, 0x00, 0x00, 0x00, 0x02, 0x00, 0x00, 0x00, 0x20, 0x00, 0x00, 0x00,
  0x04, 0x00, 0x00, 0x00, 0xf4, 0xff, 0xff, 0xff, 0x0e, 0x00, 0x00, 0x00,
  0x00, 0x00, 0x00, 0x0e, 0x0c, 0x00, 0x0c, 0x00, 0x0b, 0x00, 0x00, 0x00,
  0x00, 0x00, 0x04, 0x00, 0x0c, 0x00, 0x00, 0x00, 0x09, 0x00, 0x00, 0x00,
  0x00, 0x00, 0x00, 0x09
};

const int g_vital_signs_model_quantized_tflite_len = 3160;
