#pragma once

// Model data
const unsigned char g_vital_signs_model_quantized_tflite[] = {
    0x1c, 0x00, 0x00, 0x00, 0x54, 0x46, 0x4c, 0x33, 0x14, 0x00, 0x20, 0x00,
    0x1c, 0x00, 0x18, 0x00, 0x14, 0x00, 0x10, 0x00, 0x0c, 0x00, 0x00, 0x00,
    0x08, 0x00, 0x04, 0x00, 0x14, 0x00, 0x00, 0x00, 0x1c, 0x00, 0x00, 0x00,
    0x8c, 0x00, 0x00, 0x00, 0xe4, 0x00, 0x00, 0x00, 0x10, 0x06, 0x00, 0x00,
    0x20, 0x06, 0x00, 0x00, 0xb4, 0x0b, 0x00, 0x00, 0x03, 0x00, 0x00, 0x00,
    0x01, 0x00, 0x00, 0x00, 0x04, 0x00, 0x00, 0x00, 0xa2, 0xf9, 0xff, 0xff,
    0x0c, 0x00, 0x00, 0x00, 0x1c, 0x00, 0x00, 0x00, 0x3c, 0x00, 0x00, 0x00,
    0x0f, 0x00, 0x00, 0x00, 0x73, 0x65, 0x72, 0x76, 0x69, 0x6e, 0x67, 0x5f,
    0x64, 0x65, 0x66, 0x61, 0x75, 0x6c, 0x74, 0x00, 0x01, 0x00, 0x00, 0x00,
    0x04, 0x00, 0x00, 0x00, 0x90, 0xff, 0xff, 0xff, 0x0a, 0x00, 0x00, 0x00,
    0x04, 0x00, 0x00, 0x00, 0x08, 0x00, 0x00, 0x00, 0x6f, 0x75, 0x74, 0x70,
    0x75, 0x74, 0x5f, 0x30, 0x00, 0x00, 0x00, 0x00, 0x01, 0x00, 0x00, 0x00,
    0x04, 0x00, 0x00, 0x00, 0x92, 0xfa, 0xff, 0xff, 0x04, 0x00, 0x00, 0x00,
    0x0e, 0x00, 0x00, 0x00, 0x6b, 0x65, 0x72, 0x61, 0x73, 0x5f, 0x74, 0x65,
    0x6e, 0x73, 0x6f, 0x72, 0x5f, 0x34, 0x00, 0x00, 0x02, 0x00, 0x00, 0x00,
    0x34, 0x00, 0x00, 0x00, 0x04, 0x00, 0x00, 0x00, 0xdc, 0xff, 0xff, 0xff,
    0x0d, 0x00, 0x00, 0x00, 0x04, 0x00, 0x00, 0x00, 0x13, 0x00, 0x00, 0x00,
    0x43, 0x4f, 0x4e, 0x56, 0x45, 0x52, 0x53, 0x49, 0x4f, 0x4e, 0x5f, 0x4d,
    0x45, 0x54, 0x41, 0x44, 0x41, 0x54, 0x41, 0x00, 0x08, 0x00, 0x0c, 0x00,
    0x08, 0x00, 0x04, 0x00, 0x08, 0x00, 0x00, 0x00, 0x0c, 0x00, 0x00, 0x00,
    0x04, 0x00, 0x00, 0x00, 0x13, 0x00, 0x00, 0x00, 0x6d, 0x69, 0x6e, 0x5f,
    0x72, 0x75, 0x6e, 0x74, 0x69, 0x6d, 0x65, 0x5f, 0x76, 0x65, 0x72, 0x73,
    0x69, 0x6f, 0x6e, 0x00, 0x0e, 0x00, 0x00, 0x00, 0x28, 0x05, 0x00, 0x00,
    0x20, 0x05, 0x00, 0x00, 0xf0, 0x04, 0x00, 0x00, 0xd8, 0x02, 0x00, 0x00,
    0xc4, 0x02, 0x00, 0x00, 0x94, 0x02, 0x00, 0x00, 0x44, 0x02, 0x00, 0x00,
    0xb4, 0x00, 0x00, 0x00, 0xac, 0x00, 0x00, 0x00, 0xa4, 0x00, 0x00, 0x00,
    0x9c, 0x00, 0x00, 0x00, 0x94, 0x00, 0x00, 0x00, 0x74, 0x00, 0x00, 0x00,
    0x04, 0x00, 0x00, 0x00, 0x46, 0xfb, 0xff, 0xff, 0x04, 0x00, 0x00, 0x00,
    0x60, 0x00, 0x00, 0x00, 0x0c, 0x00, 0x00, 0x00, 0x08, 0x00, 0x0e, 0x00,
    0x08, 0x00, 0x04, 0x00, 0x08, 0x00, 0x00, 0x00, 0x10, 0x00, 0x00, 0x00,
    0x28, 0x00, 0x00, 0x00, 0x00, 0x00, 0x06, 0x00, 0x08, 0x00, 0x04, 0x00,
    0x06, 0x00, 0x00, 0x00, 0x04, 0x00, 0x00, 0x00, 0x01, 0x00, 0x00, 0x00,
    0xea, 0x03, 0x00, 0x00, 0x0c, 0x00, 0x18, 0x00, 0x14, 0x00, 0x10, 0x00,
    0x0c, 0x00, 0x04, 0x00, 0x0c, 0x00, 0x00, 0x00, 0x8b, 0x3e, 0xff, 0xda,
    0x38, 0x9e, 0x4f, 0xba, 0x02, 0x00, 0x00, 0x00, 0x02, 0x00, 0x00, 0x00,
    0x04, 0x00, 0x00, 0x00, 0x06, 0x00, 0x00, 0x00, 0x32, 0x2e, 0x31, 0x39,
    0x2e, 0x30, 0x00, 0x00, 0xb2, 0xfb, 0xff, 0xff, 0x04, 0x00, 0x00, 0x00,
    0x10, 0x00, 0x00, 0x00, 0x31, 0x2e, 0x31, 0x34, 0x2e, 0x30, 0x00, 0x00,
    0x00, 0x00, 0x00, 0x00, 0x00, 0x00, 0x00, 0x00, 0x24, 0xf6, 0xff, 0xff,
    0x28, 0xf6, 0xff, 0xff, 0x2c, 0xf6, 0xff, 0xff, 0x30, 0xf6, 0xff, 0xff,
    0xde, 0xfb, 0xff, 0xff, 0x04, 0x00, 0x00, 0x00, 0x80, 0x01, 0x00, 0x00,
    0x78, 0x04, 0x98, 0xbe, 0x9a, 0x8c, 0xf1, 0xbc, 0xdf, 0x80, 0x14, 0xbe,
    0x7a, 0xa9, 0x80, 0xbe, 0x27, 0xd5, 0xf5, 0xbc, 0x92, 0xf8, 0x97, 0x3d,
    0xc5, 0x37, 0x92, 0xbe, 0x33, 0xcb, 0x27, 0x3e, 0x11, 0x90, 0xea, 0x3d,
    0x99, 0x48, 0x6d, 0xbc, 0xfd, 0xf2, 0x30, 0x3e, 0x86, 0x4c, 0x1d, 0x3f,
    0x41, 0xff, 0x93, 0xbe, 0x28, 0xa2, 0x01, 0xbc, 0x46, 0xf2, 0x0e, 0xbe,
    0xb4, 0x68, 0x57, 0x3e, 0x1e, 0x20, 0xe6, 0x3c, 0x1c, 0xae, 0x10, 0x3e,
    0x57, 0x19, 0xb1, 0xbe, 0x52, 0x64, 0xbd, 0x3e, 0x6e, 0xc7, 0x99, 0x3d,
    0x1d, 0x27, 0x17, 0xbd, 0xc9, 0x46, 0x5b, 0xbd, 0x08, 0xbb, 0x2d, 0x3e,
    0xae, 0x61, 0x81, 0x3f, 0xad, 0xe1, 0xe3, 0xbc, 0xad, 0x85, 0xae, 0x3c,
    0x26, 0x0c, 0xc1, 0xbc, 0x01, 0x45, 0xbc, 0xbc, 0x7e, 0x06, 0xcd, 0x3f,
    0x5a, 0xa5, 0xa1, 0x3f, 0x75, 0x66, 0x97, 0x3b, 0x68, 0xbe, 0xdd, 0xba,
    0x68, 0x24, 0xe3, 0xba, 0x23, 0x72, 0xb8, 0x3a, 0x05, 0x1e, 0x61, 0x3b,
    0x2a, 0x3e, 0x5b, 0xbe, 0xf7, 0x9f, 0x75, 0x3b, 0xd1, 0x04, 0x25, 0xbc,
    0x97, 0x42, 0x0a, 0xbc, 0x2d, 0x6c, 0x7d, 0x39, 0xec, 0x9b, 0x96, 0xbf,
    0x1b, 0x93, 0x3b, 0x3f, 0xd4, 0xed, 0x6b, 0x3e, 0x2d, 0x8f, 0x67, 0x3e,
    0xfe, 0x8f, 0x2a, 0x3c, 0x94, 0x8b, 0xb3, 0xbd, 0xcd, 0x7e, 0x7f, 0x3e,
    0x76, 0x25, 0x20, 0xbe, 0x70, 0x2e, 0x97, 0xbe, 0xba, 0x61, 0x04, 0xbd,
    0x2c, 0x6d, 0x37, 0x3c, 0x37, 0xa3, 0xc5, 0xbd, 0x3f, 0x3d, 0x61, 0x3e,
    0xcf, 0xa1, 0x59, 0x3f, 0xa2, 0xb3, 0x95, 0x3b, 0xc7, 0x4d, 0x84, 0x3a,
    0x30, 0xcf, 0xd5, 0xbb, 0x53, 0xe5, 0x1b, 0xbb, 0x47, 0xba, 0xb9, 0xbf,
    0x2f, 0x9f, 0x39, 0xbe, 0x81, 0x54, 0xa3, 0x3d, 0x49, 0x18, 0x8d, 0xbc,
    0x8a, 0x54, 0x6e, 0xbd, 0x34, 0x99, 0xf4, 0xbc, 0x43, 0x63, 0xae, 0x3f,
    0x73, 0x7a, 0x1b, 0xbf, 0x4d, 0xe0, 0x40, 0x3c, 0x7b, 0x6c, 0x17, 0xbc,
    0xb6, 0xbb, 0xef, 0x3b, 0x48, 0x87, 0xba, 0xb9, 0xc8, 0xe9, 0xe2, 0x3f,
    0x2c, 0xb2, 0x27, 0xbf, 0x9b, 0xc3, 0x2b, 0x3c, 0xa5, 0xb3, 0x07, 0xbc,
    0x89, 0x5d, 0x99, 0x3b, 0x6a, 0xf0, 0x03, 0x3b, 0xe4, 0xa3, 0xf0, 0x3f,
    0x06, 0x92, 0x2e, 0xbf, 0xa3, 0x8f, 0x40, 0xbe, 0xd9, 0x1f, 0x56, 0xbd,
    0x9e, 0xba, 0xdb, 0x3b, 0x8b, 0xff, 0xd7, 0xbc, 0x99, 0x86, 0xe9, 0xbe,
    0xee, 0x3c, 0x5b, 0xbf, 0x57, 0x74, 0x9d, 0x3c, 0xdc, 0x13, 0xfd, 0x3b,
    0x8a, 0x5c, 0xc4, 0x3b, 0x72, 0x8b, 0xf0, 0x3b, 0xb7, 0x3d, 0xe1, 0xbf,
    0x76, 0x2d, 0x47, 0x3f, 0xab, 0x81, 0x69, 0x3d, 0x96, 0xe6, 0x04, 0xbd,
    0xc1, 0xb0, 0x09, 0x3e, 0x35, 0x72, 0x39, 0x3d, 0x3d, 0xcc, 0xcf, 0xbe,
    0x6a, 0xfd, 0xff, 0xff, 0x04, 0x00, 0x00, 0x00, 0x40, 0x00, 0x00, 0x00,
    0xa9, 0x5d, 0x4f, 0x3f, 0xa7, 0x04, 0x95, 0x3f, 0x0f, 0x63, 0x78, 0x3f,
    0x3d, 0xf8, 0x91, 0x3f, 0x11, 0xe8, 0xf6, 0x3e, 0xfa, 0x45, 0x93, 0xbf,
    0x2a, 0x7c, 0x6f, 0xbf, 0x1a, 0x86, 0x18, 0xbf, 0x30, 0x44, 0x87, 0x3f,
    0x73, 0xef, 0xb3, 0x3c, 0xeb, 0x6f, 0xbd, 0xbe, 0xe5, 0xc2, 0x3c, 0xbf,
    0x23, 0xf4, 0x46, 0xbf, 0xf7, 0x1e, 0x8d, 0x3f, 0xdb, 0xba, 0x6f, 0xbf,
    0xd6, 0x55, 0x0b, 0xbf, 0xb6, 0xfd, 0xff, 0xff, 0x04, 0x00, 0x00, 0x00,
    0x20, 0x00, 0x00, 0x00, 0xb4, 0x5e, 0x87, 0x3f, 0x74, 0x5a, 0x60, 0x3f,
    0xf4, 0x66, 0x2f, 0xbf, 0x5a, 0x5b, 0x82, 0x3f, 0x86, 0xc4, 0x1a, 0xbf,
    0xc8, 0x3a, 0x3d, 0xbf, 0xb5, 0xb0, 0xa9, 0x3f, 0x17, 0x74, 0x49, 0xbf,
    0xe2, 0xfd, 0xff, 0xff, 0x04, 0x00, 0x00, 0x00, 0x04, 0x00, 0x00, 0x00,
    0xfc, 0xd7, 0x2b, 0xbf, 0xf2, 0xfd, 0xff, 0xff, 0x04, 0x00, 0x00, 0x00,
    0x00, 0x02, 0x00, 0x00, 0x17, 0xbf, 0xc5, 0x3d, 0x5f, 0xc8, 0x38, 0x3f,
    0x31, 0xa4, 0x90, 0x3e, 0xc8, 0x14, 0x43, 0x3f, 0xb8, 0xbe, 0x8e, 0xbf,
    0xf2, 0x18, 0xd7, 0xc0, 0x4c, 0x8b, 0xb7, 0xbf, 0x2a, 0xcf, 0xa2, 0x3e,
    0x02, 0x58, 0x4b, 0x3f, 0x33, 0x21, 0x81, 0xbf, 0x1b, 0x43, 0x9d, 0xbe,
    0x0b, 0x54, 0xe3, 0xbf, 0xaf, 0xb3, 0xb7, 0xbf, 0x43, 0xa4, 0x57, 0x3f,
    0x1a, 0x83, 0xf0, 0xbf, 0x70, 0x7e, 0x9e, 0xbe, 0x8a, 0x73, 0x61, 0x3d,
    0x13, 0x4d, 0xf6, 0x3e, 0x24, 0x30, 0xfa, 0x3e, 0xbe, 0x7f, 0xf3, 0x3e,
    0x83, 0x9d, 0x41, 0xbf, 0x95, 0x2a, 0xcf, 0xc0, 0x0f, 0x1c, 0x0f, 0xbf,
    0x02, 0x1e, 0xa4, 0xbe, 0x53, 0x12, 0xa4, 0x3e, 0x15, 0x42, 0x50, 0xbf,
    0xfb, 0x10, 0xf9, 0x3d, 0x99, 0x2c, 0xbd, 0xbf, 0x81, 0x62, 0xc0, 0xbf,
    0xed, 0x8d, 0x35, 0x3f, 0xf0, 0x7e, 0x85, 0xbf, 0xbe, 0x18, 0x00, 0xbd,
    0xe3, 0x01, 0x31, 0x3e, 0x5d, 0x32, 0x81, 0xbe, 0x3f, 0x06, 0xa3, 0xbe,
    0x2f, 0xdf, 0x1d, 0xbe, 0x82, 0xdf, 0xa9, 0x3f, 0x18, 0xe2, 0xe5, 0x40,
    0x98, 0x2c, 0x78, 0x3f, 0xc9, 0x27, 0x7c, 0x3e, 0x9b, 0x90, 0xd6, 0xbe,
    0xb6, 0x17, 0x73, 0x3f, 0x78, 0x8e, 0x3c, 0x3e, 0xf1, 0x14, 0xc9, 0x3f,
    0xfe, 0x5f, 0xdd, 0x3f, 0x62, 0x86, 0xb9, 0xbd, 0x5f, 0x90, 0xb2, 0x3f,
    0x08, 0xda, 0x21, 0x3f, 0xa5, 0x79, 0xda, 0x3e, 0xd7, 0x0c, 0x4a, 0x3f,
    0xc9, 0x90, 0x22, 0x3f, 0x8e, 0xbf, 0x6c, 0x3f, 0xfb, 0x2c, 0x92, 0xbf,
    0x75, 0x8c, 0xe7, 0xc0, 0x2c, 0x42, 0xbc, 0xbf, 0xd1, 0x71, 0x73, 0xbe,
    0x81, 0xe2, 0x4e, 0x3f, 0x62, 0xf0, 0x44, 0xbf, 0x37, 0xe0, 0x97, 0xbe,
    0x06, 0x25, 0xdc, 0xbf, 0x0f, 0x2c, 0xe8, 0xbf, 0x09, 0xa5, 0x04, 0x3f,
    0xa5, 0x69, 0xd4, 0xbf, 0xd1, 0x95, 0x52, 0x3e, 0x65, 0x7f, 0xc7, 0xbd,
    0xdf, 0xf7, 0x80, 0xbf, 0x33, 0xe4, 0x0f, 0xbd, 0xa9, 0xc8, 0x7b, 0xbe,
    0x40, 0x6a, 0xa1, 0xbe, 0x9d, 0x1b, 0xca, 0xbf, 0xcf, 0x29, 0xcf, 0x3f,
    0x53, 0x58, 0xb9, 0xbe, 0x22, 0x82, 0x6f, 0xbf, 0x1c, 0x17, 0x65, 0x3f,
    0x10, 0x2f, 0x06, 0x3e, 0xb4, 0xee, 0x19, 0xbe, 0xa1, 0x21, 0x0e, 0xbf,
    0x52, 0x8b, 0x44, 0x3f, 0x5c, 0xfd, 0xe5, 0x3f, 0x23, 0xc0, 0xa6, 0xbf,
    0xae, 0x64, 0xaa, 0xbe, 0x4c, 0x4c, 0x79, 0x3e, 0xaa, 0x36, 0x54, 0x3e,
    0xc5, 0x96, 0x13, 0xbf, 0x7d, 0xff, 0xcf, 0x3f, 0xd5, 0x45, 0xe2, 0x40,
    0x26, 0xdc, 0x92, 0x3f, 0x05, 0x6b, 0xf9, 0x3e, 0x5d, 0x0c, 0x23, 0xbf,
    0x75, 0x5b, 0xb7, 0x3f, 0x9d, 0x88, 0x5d, 0x3f, 0x8d, 0x72, 0xb8, 0x3f,
    0x02, 0x21, 0xe2, 0x3f, 0x4e, 0x11, 0x4c, 0xbe, 0x22, 0xf4, 0xf3, 0x3f,
    0xee, 0x2f, 0x77, 0x3e, 0x38, 0x98, 0xe1, 0x3e, 0x8c, 0xd5, 0x0c, 0x3f,
    0x87, 0x12, 0x6b, 0x3d, 0xbd, 0xb4, 0x7f, 0x3f, 0x1e, 0x4d, 0x8d, 0xbf,
    0x85, 0x7f, 0xf0, 0xc0, 0x11, 0xf1, 0x33, 0xbf, 0xf5, 0x7e, 0xfc, 0x3d,
    0xdd, 0x47, 0x6b, 0x3f, 0xbf, 0xb9, 0x94, 0xbf, 0x77, 0x05, 0x10, 0xbf,
    0x15, 0x9c, 0x97, 0xbf, 0x5b, 0xbb, 0xe2, 0xbf, 0xe1, 0xe0, 0xf5, 0x3d,
    0x9a, 0xb2, 0xcd, 0xbf, 0xbe, 0x21, 0xb5, 0x3d, 0x29, 0x7c, 0xe4, 0x3d,
    0x6b, 0xb6, 0x31, 0xbf, 0x9f, 0x8b, 0x74, 0xbe, 0x24, 0xc6, 0xd5, 0x3d,
    0xfb, 0xfe, 0x91, 0x3f, 0xd9, 0x36, 0x00, 0x41, 0x07, 0xe9, 0xc1, 0x3f,
    0xbc, 0x41, 0x6c, 0x3e, 0x8b, 0x6d, 0x86, 0xbe, 0xd5, 0xe5, 0x65, 0x3f,
    0xb1, 0x78, 0x1e, 0xc0, 0x32, 0xec, 0xca, 0xbf, 0x35, 0xb2, 0xbc, 0xbf,
    0x84, 0x26, 0xe3, 0xbd, 0xbb, 0xc6, 0x9e, 0x3f, 0x93, 0xca, 0x27, 0x3f,
    0x00, 0x00, 0x06, 0x00, 0x08, 0x00, 0x04, 0x00, 0x06, 0x00, 0x00, 0x00,
    0x04, 0x00, 0x00, 0x00, 0x20, 0x00, 0x00, 0x00, 0xfe, 0x4e, 0x96, 0xc0,
    0x23, 0xe8, 0x1f, 0xc0, 0x3f, 0x03, 0x40, 0x40, 0xf6, 0x13, 0x6d, 0xc0,
    0x6d, 0x2f, 0x39, 0x40, 0x8d, 0x9f, 0x25, 0x40, 0x08, 0x93, 0x96, 0xc0,
    0x1b, 0x01, 0x3e, 0x40, 0x88, 0xfa, 0xff, 0xff, 0x8c, 0xfa, 0xff, 0xff,
    0x0f, 0x00, 0x00, 0x00, 0x4d, 0x4c, 0x49, 0x52, 0x20, 0x43, 0x6f, 0x6e,
    0x76, 0x65, 0x72, 0x74, 0x65, 0x64, 0x2e, 0x00, 0x01, 0x00, 0x00, 0x00,
    0x14, 0x00, 0x00, 0x00, 0x00, 0x00, 0x0e, 0x00, 0x18, 0x00, 0x14, 0x00,
    0x10, 0x00, 0x0c, 0x00, 0x08, 0x00, 0x04, 0x00, 0x0e, 0x00, 0x00, 0x00,
    0x14, 0x00, 0x00, 0x00, 0x1c, 0x00, 0x00, 0x00, 0x08, 0x01, 0x00, 0x00,
    0x0c, 0x01, 0x00, 0x00, 0x10, 0x01, 0x00, 0x00, 0x04, 0x00, 0x00, 0x00,
    0x6d, 0x61, 0x69, 0x6e, 0x00, 0x00, 0x00, 0x00, 0x04, 0x00, 0x00, 0x00,
    0xb0, 0x00, 0x00, 0x00, 0x68, 0x00, 0x00, 0x00, 0x34, 0x00, 0x00, 0x00,
    0x10, 0x00, 0x00, 0x00, 0x00, 0x00, 0x0a, 0x00, 0x10, 0x00, 0x0c, 0x00,
    0x08, 0x00, 0x04, 0x00, 0x0a, 0x00, 0x00, 0x00, 0x0c, 0x00, 0x00, 0x00,
    0x10, 0x00, 0x00, 0x00, 0x01, 0x00, 0x00, 0x00, 0x01, 0x00, 0x00, 0x00,
    0x0a, 0x00, 0x00, 0x00, 0x01, 0x00, 0x00, 0x00, 0x09, 0x00, 0x00, 0x00,
    0x9a, 0xff, 0xff, 0xff, 0x10, 0x00, 0x00, 0x00, 0x00, 0x00, 0x00, 0x08,
    0x0c, 0x00, 0x00, 0x00, 0x10, 0x00, 0x00, 0x00, 0x34, 0xfb, 0xff, 0xff,
    0x01, 0x00, 0x00, 0x00, 0x09, 0x00, 0x00, 0x00, 0x03, 0x00, 0x00, 0x00,
    0x08, 0x00, 0x00, 0x00, 0x01, 0x00, 0x00, 0x00, 0x03, 0x00, 0x00, 0x00,
    0xca, 0xff, 0xff, 0xff, 0x10, 0x00, 0x00, 0x00, 0x00, 0x00, 0x00, 0x08,
    0x10, 0x00, 0x00, 0x00, 0x14, 0x00, 0x00, 0x00, 0xba, 0xff, 0xff, 0xff,
    0x00, 0x00, 0x00, 0x01, 0x01, 0x00, 0x00, 0x00, 0x08, 0x00, 0x00, 0x00,
    0x03, 0x00, 0x00, 0x00, 0x07, 0x00, 0x00, 0x00, 0x02, 0x00, 0x00, 0x00,
    0x04, 0x00, 0x00, 0x00, 0x00, 0x00, 0x0e, 0x00, 0x16, 0x00, 0x00, 0x00,
    0x10, 0x00, 0x0c, 0x00, 0x0b, 0x00, 0x04, 0x00, 0x0e, 0x00, 0x00, 0x00,
    0x18, 0x00, 0x00, 0x00, 0x00, 0x00, 0x00, 0x08, 0x18, 0x00, 0x00, 0x00,
    0x1c, 0x00, 0x00, 0x00, 0x00, 0x00, 0x06, 0x00, 0x08, 0x00, 0x07, 0x00,
    0x06, 0x00, 0x00, 0x00, 0x00, 0x00, 0x00, 0x01, 0x01, 0x00, 0x00, 0x00,
    0x07, 0x00, 0x00, 0x00, 0x03, 0x00, 0x00, 0x00, 0x00, 0x00, 0x00, 0x00,
    0x06, 0x00, 0x00, 0x00, 0x05, 0x00, 0x00, 0x00, 0x01, 0x00, 0x00, 0x00,
    0x0a, 0x00, 0x00, 0x00, 0x01, 0x00, 0x00, 0x00, 0x00, 0x00, 0x00, 0x00,
    0x0b, 0x00, 0x00, 0x00, 0xf4, 0x03, 0x00, 0x00, 0x9c, 0x03, 0x00, 0x00,
    0x44, 0x03, 0x00, 0x00, 0x08, 0x03, 0x00, 0x00, 0xcc, 0x02, 0x00, 0x00,
    0x70, 0x02, 0x00, 0x00, 0x20, 0x02, 0x00, 0x00, 0x80, 0x01, 0x00, 0x00,
    0xe0, 0x00, 0x00, 0x00, 0x60, 0x00, 0x00, 0x00, 0x04, 0x00, 0x00, 0x00,
    0x4e, 0xfc, 0xff, 0xff, 0x00, 0x00, 0x00, 0x01, 0x14, 0x00, 0x00, 0x00,
    0x1c, 0x00, 0x00, 0x00, 0x1c, 0x00, 0x00, 0x00, 0x0b, 0x00, 0x00, 0x00,
    0x34, 0x00, 0x00, 0x00, 0x02, 0x00, 0x00, 0x00, 0xff, 0xff, 0xff, 0xff,
    0x01, 0x00, 0x00, 0x00, 0x38, 0xfc, 0xff, 0xff, 0x1b, 0x00, 0x00, 0x00,
    0x53, 0x74, 0x61, 0x74, 0x65, 0x66, 0x75, 0x6c, 0x50, 0x61, 0x72, 0x74,
    0x69, 0x74, 0x69, 0x6f, 0x6e, 0x65, 0x64, 0x43, 0x61, 0x6c, 0x6c, 0x5f,
    0x31, 0x3a, 0x30, 0x00, 0x02, 0x00, 0x00, 0x00, 0x01, 0x00, 0x00, 0x00,
    0x01, 0x00, 0x00, 0x00, 0xa6, 0xfc, 0xff, 0xff, 0x00, 0x00, 0x00, 0x01,
    0x14, 0x00, 0x00, 0x00, 0x1c, 0x00, 0x00, 0x00, 0x1c, 0x00, 0x00, 0x00,
    0x0a, 0x00, 0x00, 0x00, 0x58, 0x00, 0x00, 0x00, 0x02, 0x00, 0x00, 0x00,
    0xff, 0xff, 0xff, 0xff, 0x01, 0x00, 0x00, 0x00, 0x90, 0xfc, 0xff, 0xff,
    0x3c, 0x00, 0x00, 0x00, 0x73, 0x65, 0x71, 0x75, 0x65, 0x6e, 0x74, 0x69,
    0x61, 0x6c, 0x5f, 0x31, 0x5f, 0x31, 0x2f, 0x64, 0x65, 0x6e, 0x73, 0x65,
    0x5f, 0x35, 0x5f, 0x31, 0x2f, 0x4d, 0x61, 0x74, 0x4d, 0x75, 0x6c, 0x3b,
    0x73, 0x65, 0x71, 0x75, 0x65, 0x6e, 0x74, 0x69, 0x61, 0x6c, 0x5f, 0x31,
    0x5f, 0x31, 0x2f, 0x64, 0x65, 0x6e, 0x73, 0x65, 0x5f, 0x35, 0x5f, 0x31,
    0x2f, 0x41, 0x64, 0x64, 0x00, 0x00, 0x00, 0x00, 0x02, 0x00, 0x00, 0x00,
    0x01, 0x00, 0x00, 0x00, 0x01, 0x00, 0x00, 0x00, 0x22, 0xfd, 0xff, 0xff,
    0x00, 0x00, 0x00, 0x01, 0x14, 0x00, 0x00, 0x00, 0x1c, 0x00, 0x00, 0x00,
    0x1c, 0x00, 0x00, 0x00, 0x09, 0x00, 0x00, 0x00, 0x78, 0x00, 0x00, 0x00,
    0x02, 0x00, 0x00, 0x00, 0xff, 0xff, 0xff, 0xff, 0x08, 0x00, 0x00, 0x00,
    0x0c, 0xfd, 0xff, 0xff, 0x5e, 0x00, 0x00, 0x00, 0x73, 0x65, 0x71, 0x75,
    0x65, 0x6e, 0x74, 0x69, 0x61, 0x6c, 0x5f, 0x31, 0x5f, 0x31, 0x2f, 0x64,
    0x65, 0x6e, 0x73, 0x65, 0x5f, 0x34, 0x5f, 0x31, 0x2f, 0x4d, 0x61, 0x74,
    0x4d, 0x75, 0x6c, 0x3b, 0x73, 0x65, 0x71, 0x75, 0x65, 0x6e, 0x74, 0x69,
    0x61, 0x6c, 0x5f, 0x31, 0x5f, 0x31, 0x2f, 0x64, 0x65, 0x6e, 0x73, 0x65,
    0x5f, 0x34, 0x5f, 0x31, 0x2f, 0x52, 0x65, 0x6c, 0x75, 0x3b, 0x73, 0x65,
    0x71, 0x75, 0x65, 0x6e, 0x74, 0x69, 0x61, 0x6c, 0x5f, 0x31, 0x5f, 0x31,
    0x2f, 0x64, 0x65, 0x6e, 0x73, 0x65, 0x5f, 0x34, 0x5f, 0x31, 0x2f, 0x42,
    0x69, 0x61, 0x73, 0x41, 0x64, 0x64, 0x00, 0x00, 0x02, 0x00, 0x00, 0x00,
    0x01, 0x00, 0x00, 0x00, 0x08, 0x00, 0x00, 0x00, 0xbe, 0xfd, 0xff, 0xff,
    0x00, 0x00, 0x00, 0x01, 0x14, 0x00, 0x00, 0x00, 0x1c, 0x00, 0x00, 0x00,
    0x1c, 0x00, 0x00, 0x00, 0x08, 0x00, 0x00, 0x00, 0x78, 0x00, 0x00, 0x00,
    0x02, 0x00, 0x00, 0x00, 0xff, 0xff, 0xff, 0xff, 0x10, 0x00, 0x00, 0x00,
    0xa8, 0xfd, 0xff, 0xff, 0x5e, 0x00, 0x00, 0x00, 0x73, 0x65, 0x71, 0x75,
    0x65, 0x6e, 0x74, 0x69, 0x61, 0x6c, 0x5f, 0x31, 0x5f, 0x31, 0x2f, 0x64,
    0x65, 0x6e, 0x73, 0x65, 0x5f, 0x33, 0x5f, 0x31, 0x2f, 0x4d, 0x61, 0x74,
    0x4d, 0x75, 0x6c, 0x3b, 0x73, 0x65, 0x71, 0x75, 0x65, 0x6e, 0x74, 0x69,
    0x61, 0x6c, 0x5f, 0x31, 0x5f, 0x31, 0x2f, 0x64, 0x65, 0x6e, 0x73, 0x65,
    0x5f, 0x33, 0x5f, 0x31, 0x2f, 0x52, 0x65, 0x6c, 0x75, 0x3b, 0x73, 0x65,
    0x71, 0x75, 0x65, 0x6e, 0x74, 0x69, 0x61, 0x6c, 0x5f, 0x31, 0x5f, 0x31,
    0x2f, 0x64, 0x65, 0x6e, 0x73, 0x65, 0x5f, 0x33, 0x5f, 0x31, 0x2f, 0x42,
    0x69, 0x61, 0x73, 0x41, 0x64, 0x64, 0x00, 0x00, 0x02, 0x00, 0x00, 0x00,
    0x01, 0x00, 0x00, 0x00, 0x10, 0x00, 0x00, 0x00, 0xae, 0xfe, 0xff, 0xff,
    0x00, 0x00, 0x00, 0x01, 0x10, 0x00, 0x00, 0x00, 0x10, 0x00, 0x00, 0x00,
    0x07, 0x00, 0x00, 0x00, 0x2c, 0x00, 0x00, 0x00, 0x34, 0xfe, 0xff, 0xff,
    0x1f, 0x00, 0x00, 0x00, 0x73, 0x65, 0x71, 0x75, 0x65, 0x6e, 0x74, 0x69,
    0x61, 0x6c, 0x5f, 0x31, 0x5f, 0x31, 0x2f, 0x64, 0x65, 0x6e, 0x73, 0x65,
    0x5f, 0x33, 0x5f, 0x31, 0x2f, 0x4d, 0x61, 0x74, 0x4d, 0x75, 0x6c, 0x00,
    0x02, 0x00, 0x00, 0x00, 0x10, 0x00, 0x00, 0x00, 0x06, 0x00, 0x00, 0x00,
    0xfa, 0xfe, 0xff, 0xff, 0x00, 0x00, 0x00, 0x01, 0x10, 0x00, 0x00, 0x00,
    0x10, 0x00, 0x00, 0x00, 0x06, 0x00, 0x00, 0x00, 0x3c, 0x00, 0x00, 0x00,
    0x80, 0xfe, 0xff, 0xff, 0x2f, 0x00, 0x00, 0x00, 0x73, 0x65, 0x71, 0x75,
    0x65, 0x6e, 0x74, 0x69, 0x61, 0x6c, 0x5f, 0x31, 0x5f, 0x31, 0x2f, 0x64,
    0x65, 0x6e, 0x73, 0x65, 0x5f, 0x33, 0x5f, 0x31, 0x2f, 0x42, 0x69, 0x61,
    0x73, 0x41, 0x64, 0x64, 0x2f, 0x52, 0x65, 0x61, 0x64, 0x56, 0x61, 0x72,
    0x69, 0x61, 0x62, 0x6c, 0x65, 0x4f, 0x70, 0x00, 0x01, 0x00, 0x00, 0x00,
    0x10, 0x00, 0x00, 0x00, 0x52, 0xff, 0xff, 0xff, 0x00, 0x00, 0x00, 0x01,
    0x10, 0x00, 0x00, 0x00, 0x10, 0x00, 0x00, 0x00, 0x05, 0x00, 0x00, 0x00,
    0x1c, 0x00, 0x00, 0x00, 0xd8, 0xfe, 0xff, 0xff, 0x0f, 0x00, 0x00, 0x00,
    0x61, 0x72, 0x69, 0x74, 0x68, 0x2e, 0x63, 0x6f, 0x6e, 0x73, 0x74, 0x61,
    0x6e, 0x74, 0x33, 0x00, 0x01, 0x00, 0x00, 0x00, 0x08, 0x00, 0x00, 0x00,
    0x8a, 0xff, 0xff, 0xff, 0x00, 0x00, 0x00, 0x01, 0x10, 0x00, 0x00, 0x00,
    0x10, 0x00, 0x00, 0x00, 0x04, 0x00, 0x00, 0x00, 0x1c, 0x00, 0x00, 0x00,
    0x10, 0xff, 0xff, 0xff, 0x0f, 0x00, 0x00, 0x00, 0x61, 0x72, 0x69, 0x74,
    0x68, 0x2e, 0x63, 0x6f, 0x6e, 0x73, 0x74, 0x61, 0x6e, 0x74, 0x32, 0x00,
    0x01, 0x00, 0x00, 0x00, 0x01, 0x00, 0x00, 0x00, 0xc2, 0xff, 0xff, 0xff,
    0x00, 0x00, 0x00, 0x01, 0x10, 0x00, 0x00, 0x00, 0x10, 0x00, 0x00, 0x00,
    0x03, 0x00, 0x00, 0x00, 0x1c, 0x00, 0x00, 0x00, 0x48, 0xff, 0xff, 0xff,
    0x0f, 0x00, 0x00, 0x00, 0x61, 0x72, 0x69, 0x74, 0x68, 0x2e, 0x63, 0x6f,
    0x6e, 0x73, 0x74, 0x61, 0x6e, 0x74, 0x31, 0x00, 0x02, 0x00, 0x00, 0x00,
    0x08, 0x00, 0x00, 0x00, 0x10, 0x00, 0x00, 0x00, 0x00, 0x00, 0x16, 0x00,
    0x18, 0x00, 0x14, 0x00, 0x00, 0x00, 0x10, 0x00, 0x0c, 0x00, 0x08, 0x00,
    0x00, 0x00, 0x00, 0x00, 0x00, 0x00, 0x07, 0x00, 0x16, 0x00, 0x00, 0x00,
    0x00, 0x00, 0x00, 0x01, 0x10, 0x00, 0x00, 0x00, 0x10, 0x00, 0x00, 0x00,
    0x02, 0x00, 0x00, 0x00, 0x1c, 0x00, 0x00, 0x00, 0x9c, 0xff, 0xff, 0xff,
    0x0e, 0x00, 0x00, 0x00, 0x61, 0x72, 0x69, 0x74, 0x68, 0x2e, 0x63, 0x6f,
    0x6e, 0x73, 0x74, 0x61, 0x6e, 0x74, 0x00, 0x00, 0x02, 0x00, 0x00, 0x00,
    0x01, 0x00, 0x00, 0x00, 0x08, 0x00, 0x00, 0x00, 0x00, 0x00, 0x16, 0x00,
    0x1c, 0x00, 0x18, 0x00, 0x00, 0x00, 0x14, 0x00, 0x10, 0x00, 0x0c, 0x00,
    0x00, 0x00, 0x00, 0x00, 0x08, 0x00, 0x07, 0x00, 0x16, 0x00, 0x00, 0x00,
    0x00, 0x00, 0x00, 0x01, 0x14, 0x00, 0x00, 0x00, 0x20, 0x00, 0x00, 0x00,
    0x20, 0x00, 0x00, 0x00, 0x01, 0x00, 0x00, 0x00, 0x40, 0x00, 0x00, 0x00,
    0x02, 0x00, 0x00, 0x00, 0xff, 0xff, 0xff, 0xff, 0x06, 0x00, 0x00, 0x00,
    0x04, 0x00, 0x04, 0x00, 0x04, 0x00, 0x00, 0x00, 0x20, 0x00, 0x00, 0x00,
    0x73, 0x65, 0x72, 0x76, 0x69, 0x6e, 0x67, 0x5f, 0x64, 0x65, 0x66, 0x61,
    0x75, 0x6c, 0x74, 0x5f, 0x6b, 0x65, 0x72, 0x61, 0x73, 0x5f, 0x74, 0x65,
    0x6e, 0x73, 0x6f, 0x72, 0x5f, 0x34, 0x3a, 0x30, 0x00, 0x00, 0x00, 0x00,
    0x02, 0x00, 0x00, 0x00, 0x01, 0x00, 0x00, 0x00, 0x06, 0x00, 0x00, 0x00,
    0x02, 0x00, 0x00, 0x00, 0x20, 0x00, 0x00, 0x00, 0x04, 0x00, 0x00, 0x00,
    0xf4, 0xff, 0xff, 0xff, 0x0e, 0x00, 0x00, 0x00, 0x00, 0x00, 0x00, 0x0e,
    0x0c, 0x00, 0x0c, 0x00, 0x0b, 0x00, 0x00, 0x00, 0x00, 0x00, 0x04, 0x00,
    0x0c, 0x00, 0x00, 0x00, 0x09, 0x00, 0x00, 0x00, 0x00, 0x00, 0x00, 0x09};

const int g_vital_signs_model_quantized_tflite_len = 3160;
